TRT-5105-EntropyCalibration
Input: 3c010a14
FeatureExtractor/MobilenetV1/MobilenetV1/Conv2d_0/Relu6: 3d418306
FeatureExtractor/MobilenetV1/MobilenetV1/Conv2d_1_depthwise/Relu6: 3d418306
FeatureExtractor/MobilenetV1/MobilenetV1/Conv2d_1_pointwise/Relu6: 3d418306
FeatureExtractor/MobilenetV1/MobilenetV1/Conv2d_2_depthwise/Relu6: 3d418306
FeatureExtractor/MobilenetV1/MobilenetV1/Conv2d_2_pointwise/Relu6: 3d418306
FeatureExtractor/MobilenetV1/MobilenetV1/Conv2d_3_depthwise/Relu6: 3d418306
FeatureExtractor/MobilenetV1/MobilenetV1/Conv2d_3_pointwise/Relu6: 3d418306
FeatureExtractor/MobilenetV1/MobilenetV1/Conv2d_4_depthwise/Relu6: 3d418306
FeatureExtractor/MobilenetV1/MobilenetV1/Conv2d_4_pointwise/Relu6: 3d418306
FeatureExtractor/MobilenetV1/MobilenetV1/Conv2d_5_depthwise/Relu6: 3d418306
FeatureExtractor/MobilenetV1/MobilenetV1/Conv2d_5_pointwise/Relu6: 3d418306
FeatureExtractor/MobilenetV1/MobilenetV1/Conv2d_6_depthwise/Relu6: 3d418306
FeatureExtractor/MobilenetV1/MobilenetV1/Conv2d_6_pointwise/Relu6: 3d418306
FeatureExtractor/MobilenetV1/MobilenetV1/Conv2d_7_depthwise/Relu6: 3d418306
FeatureExtractor/MobilenetV1/MobilenetV1/Conv2d_7_pointwise/Relu6: 3d418306
FeatureExtractor/MobilenetV1/MobilenetV1/Conv2d_8_depthwise/Relu6: 3d418306
FeatureExtractor/MobilenetV1/MobilenetV1/Conv2d_8_pointwise/Relu6: 3d418306
FeatureExtractor/MobilenetV1/MobilenetV1/Conv2d_9_depthwise/Relu6: 3d418306
FeatureExtractor/MobilenetV1/MobilenetV1/Conv2d_9_pointwise/Relu6: 3d418306
FeatureExtractor/MobilenetV1/MobilenetV1/Conv2d_10_depthwise/Relu6: 3d418306
FeatureExtractor/MobilenetV1/MobilenetV1/Conv2d_10_pointwise/Relu6: 3d418306
FeatureExtractor/MobilenetV1/MobilenetV1/Conv2d_11_depthwise/Relu6: 3d418306
FeatureExtractor/MobilenetV1/MobilenetV1/Conv2d_11_pointwise/Relu6: 3d418306
BoxPredictor_0/BoxEncodingPredictor/BiasAdd: 3e033dc8
Squeeze: 3e033dc8
FeatureExtractor/MobilenetV1/MobilenetV1/Conv2d_12_depthwise/Relu6: 3d418306
FeatureExtractor/MobilenetV1/MobilenetV1/Conv2d_12_pointwise/Relu6: 3d418306
FeatureExtractor/MobilenetV1/MobilenetV1/Conv2d_13_depthwise/Relu6: 3d418306
FeatureExtractor/MobilenetV1/MobilenetV1/Conv2d_13_pointwise/Relu6: 3d418306
BoxPredictor_1/BoxEncodingPredictor/BiasAdd: 3d53b48b
Squeeze_1: 3d53b48b
FeatureExtractor/MobilenetV1/Conv2d_13_pointwise_1_Conv2d_2_1x1_256/Relu6: 3d418306
FeatureExtractor/MobilenetV1/Conv2d_13_pointwise_2_Conv2d_2_3x3_s2_512/Relu6: 3d418306
BoxPredictor_2/BoxEncodingPredictor/BiasAdd: 3d2ef50e
Squeeze_2: 3d2ef50e
FeatureExtractor/MobilenetV1/Conv2d_13_pointwise_1_Conv2d_3_1x1_128/Relu6: 3d418306
FeatureExtractor/MobilenetV1/Conv2d_13_pointwise_2_Conv2d_3_3x3_s2_256/Relu6: 3d418306
BoxPredictor_3/BoxEncodingPredictor/BiasAdd: 3d196aa9
Squeeze_3: 3d196aa9
FeatureExtractor/MobilenetV1/Conv2d_13_pointwise_1_Conv2d_4_1x1_128/Relu6: 3d418306
FeatureExtractor/MobilenetV1/Conv2d_13_pointwise_2_Conv2d_4_3x3_s2_256/Relu6: 3d418306
BoxPredictor_4/BoxEncodingPredictor/BiasAdd: 3cd4e426
Squeeze_4: 3cd4e426
FeatureExtractor/MobilenetV1/Conv2d_13_pointwise_1_Conv2d_5_1x1_64/Relu6: 3d418306
FeatureExtractor/MobilenetV1/Conv2d_13_pointwise_2_Conv2d_5_3x3_s2_128/Relu6: 3d418306
BoxPredictor_5/BoxEncodingPredictor/BiasAdd: 3cd9bbe7
Squeeze_5: 3cd9bbe7
concat_box_loc: 3dfd0006
GridAnchor: 3a4f5b62
GridAnchor_1: 3a500341
GridAnchor_2: 3c2c4ae8
GridAnchor_3: 3c348982
GridAnchor_4: 3c3aa18a
GridAnchor_5: 3c2b37e3
BoxPredictor_0/ClassPredictor/BiasAdd: 3e683e8b
BoxPredictor_0/Reshape_1: 3e683e8b
BoxPredictor_1/ClassPredictor/BiasAdd: 3e222253
BoxPredictor_1/Reshape_1: 3e222253
BoxPredictor_2/ClassPredictor/BiasAdd: 3e44ddb0
BoxPredictor_2/Reshape_1: 3e44ddb0
BoxPredictor_3/ClassPredictor/BiasAdd: 3e0f6984
BoxPredictor_3/Reshape_1: 3e0f6984
BoxPredictor_4/ClassPredictor/BiasAdd: 3e064205
BoxPredictor_4/Reshape_1: 3e064205
BoxPredictor_5/ClassPredictor/BiasAdd: 3e0b5301
BoxPredictor_5/Reshape_1: 3e0b5301
concat_box_conf: 3e61d33e
NMS: 3f296a14
NMS_1: 1
